memory_initialization_radix = 2;
memory_initialization_vector = 
00011100,
10001011,
00100111,
11011000,
10000000,
10111001,
01110000,
10110001,
00010101,
11100100,
00011101,
01101101,
10011010,
11000011,
11110010,
11011001,
10100110,
10010001,
00001110,
11010010,
10101001,
00011000,
11101010,
00101111,
10100110,
01111011,
10111101,
00010101,
11011100,
01001110,
11001010,
11010000,
11001000,
00111100,
11010010,
00100000,
01111111,
00000111,
10101011,
01100001,
11000100,
00110111,
11001011,
10101011,
00011111,
00101000,
11110001,
00010001,
11101000,
01000000,
01100111,
00000011,
11110011,
11001000,
11101110,
11000111,
00110000,
10101000,
00100000,
10111010,
10100101,
11100011,
00000101,
01000000