memory_initialization_radix = 2;
memory_initialization_vector = 
0001110011101000101000000000100100000101000111111101001110110010000100001010000000001010111101001100101001000000101111100100110000010110111000101101100110100011111010001101000100101010000110111100100100010100100111111111010111101011100111000001110001001110001110111010011010100000101110001101111110101001110000100001000111010011001000100100110111110010001110111110010010101111111101110010111110100011110111000101101011110100001111111100011010110110000011001010111000000101001000100011010011000100111001000110010011101110100110011011001100100100110111111101101100010001110011111110101000001001001110011111100011111001001100110010100010100000001110000011110000010111111110111101101011010010111101000011110111011001101100010010000011101011001101110001100001010111010101001010101011000101110100010001000000000111100110110010001011001001101100111111100100010000111011110001011011001011111100001101101100001010101100111111111101001111101101110011001011011010111010101101111000110000100111000011010001000101001011011101110111001010,
1101111110110110101111011110011111010011010010010010001001101001001010011100101111110011111111100010010000110010001000011011000111001000111100100100011000001101110000010010010011001001000100100100001010111000110101111100110000010111001011110001110000110010110111001110110000000101101010110001010111011001111101110110101111110011000110011111001110111001001100010101010101000100010011100000100110110110101101110110000001001100101101000101100001010100101010010101111100110001110001110101100000100110101100101010101110101000001001010011100000001000110000000101010100011100011101101011011111000010110010110110100001110110001000001101110100111010111110011110011100100111010110010011101100101110001101110100001100110000000001000101111011111011010010100110100100010111000011110011101111101111101111100010000100010011001110110011110011010101110000010101000000100011000111011110110111101011011011010100011011110001000001101101111101000101001101111011100001101011000010111111110000101100110001000100111101100011110010111110001101000101,
1101111001000110010001001100001011000101000111101100101010110000101001010000110000101110111011000101100011100101000100101110010010111100111010101111100100011101110000011010110001001000111100101101001000010100010010000100100111101010000111111100010001001111000001000010101011100001111010110001110000001001001001110010011100000001001000110101000000110110111111111111000000111110110111001111010110100011001001100000010100011001000110010001111000001000101111011110111110101010110011001010011100110110110001111111001101010111001011101010100111001110000101010000010010100100001100000010000100100111101111111110110100110001110001011001110111101010010010000011111111010001001100011010011110011110111000100100111101000001100111010100000100110101111100111011110101010011110001101111110000001010001001111101010111101000001011010100111111001100111110101011001010101101100110011111100000010001111111101011101101011111110110011001010100010010000111001011110110100000001101101111101110110110111111101010001011010010000000000000011011111111,
1100101010100011000111111011100100101011001001010100100010111100000011010100101101010100010111101101011011101101010101101111100010111010001011111011100111011110001111010000000110101100111101100011011100100111110000000101100110111111110000011011010010111100111111100000100111100011111000110100101100000100101110111111100111111101111111011110101110100110010110000000000101011111010111000011111000110100001110111010010011000101010110001110011010101010101010010101011111111000000111110100100011100000101001000001101111001001111101100011111100100011000111101100010111011110001111001110011000010100111101001111100011100101010010011110001011101010111000011100110001011010101010011011011100110110010010100101011011010110000011000101101100110010101110111100000001010000000100110101000010110001000100000100100010101101000100011011011000100100111001111011000111111010000101101100000011110000001111101101110011101111101001001100111111011000101010000100000011111101000011010011100001011000001000010101010000101011000110100010111101000011,
1101101001011110111110100111001100010100010111101100011100010100110101000100100000001110011101100001110111001111010001000011011010111111001111100010111011000100011011000000011011011001000110100100110100100111110010101111101100011010010111101110001101011101000001000011110100011000110011001111110101001000010010100000010000101000111010101110011100101001111111010011110000001001011111010001001010101111001011101110101001001010111000011100011101001111000010111110011001000000010001100100010111110011110001010011010111000110010011010010111000011111011001110000000111010111001010111011011111110101101010100110011101110100000001010111111100101011111011100000010100001001010101000110001101010011011010001010111100111100001010011010110110100010010011111100101110101110001010111111111110101101001000101011001111010100000101110001101101000001111000010001000111111011111111000001111110111110001101110101101000000110010010000110001111001111001100011101111000000100101011110001011111100000110110010010001011111000001100100001001101100001,
1011110110110100111101110101000000111111110011010011111111111101001011011100011110101011000110001110010011101101000100101111011100110111111110001010010101001101000110010100000010101111111011111101110111111100101001100010011000100001001111001101111000100100110110000011001100101110101100011101011000000111101001000011001010110000010001101110111101001010010100100010100011001110001001100011010101010001101100111100101011111011111101110000000000010101000010000100010110100110010010110010110100110110110011000110001010100110010100110100110111100000111111011011000111111000111111000100010000011001000001101101000010111111111100010101010100010100000010010001111110101101000010000101101100000111000110110000110111001000000100000100001100100111101101010110001111000001000001001100011100100100001111000101011000011011111101010101001011001101010111001010110011100010101101111100001011000000000001100100100011100100000110000000101010100110010001100010101100001000111010011011100000011010010110010011011000011100101001011110000100101110,
0101101000110011100010111110110111011101110111101100010010011000111110110001010000100000101100101111010000100110101000101111100101000100110000101111010111010111110001001011101111111111111011101001001011111101111010100101000000001111100011100001110011101001001001000010110010001010110001101100011111100010100110011111110010011010101100100110001000001101000100111110001010111000100001100010111000000100111011110000010000100010001110001110111100011100010001001011101010110010100111101001000000010100111001000100101000110110100110011011000100011001010100000001110110010010111100000000001010111001001011100000010100110011101111001001111111001101111101101111000100001010101011011010011000100110000100100011101010100101101101010101100000000110001110111011010000111101101100011111100110111100101100000010100000100001001110111101110011101111010001100001100110101010111100010010000101000100111101011101010011111110100111010011111010100100000101001111001111011011101100110101011000000011111101001100100111101111010001011100011111110101,
1110110000001110010110100101100001010100011000000011011101101000110011001101111100011110111011101110101110111101001110111011111010100111101111111101111000011001011011001110001001010110001011000101110011110011001001001100001000100111111101011110111000000100010011001100101001000110101110000110111000110111011010000101011010111000101101010010100111000000010110101110010111001100000000010010000100001111011010010001111011100110001100100011110011000100000000000100100000011011011100010011001011011101110101011101001111110110111111001101011000011111111111110100011100101111001101111011110100010000111001010111000100010101000000110111000100011101010110110100111101000101011100100101000111010000110110110000001100101100010101001111100011100100001011100110011110111101111011110010000011001111111010100011111000011000000100101100101110110111111100000000110110111100001110110011000101000001111100011100101111000100110100000001000100010011110001110110010011100100000011111010011000110101001110011111100001110011000010001011010000001100,
1010001000010011111011011110011101001001000001100011101100110111010001010000001100101011101101111111101101001000010011100010110111000101010001111011010111110000110010101001110011010100101011001010000111001010101001111111000100001101010101101111101111110011110010101011010100100001010100000001101011100011001110010010011011001100001101101011010100010101001011101111011110100000010100110000000111010011110011111111001011110010010101010001101100011101101011100100011001010100101010110000000111010110110010101111100100111000110100011101111000100011000010001110010111000111001011001101010100101111111110110000110100000010111101110011010100011000101000111111010111111100010101101110001001010110010011001010111001010101110000001011010001000011000000011110110100011011010000001101010010111000110010000001000101000000010001110100011101000100001100000100000000101111110101001110000010100000110000111011110010011110000100011010110000110100111100111011010111111011001100011010110111000111110001110001111000001100100110110011010010110101,
1101001000110110001010001010101110111000110111011110000010111011000111111100101011011001101000100011001111000110001001100001100100000000110001010010110010100001110010101111011010100001010100001101000001001111101100011111000110111000111110000010001010110010001010001111010111000001110000100100000001011100001001001100101000111110001100111011001100101101010001010100100000000101110001010101110100100111001101100010101010110101101011110000010011111100001010101110011111001010001101010011101110110001001101001011011111111100111010111010111000000011110010100100100100110010000110001010101100011111110000000101101010101110110100000100001011101110001100001010111100100001110001101111100100110100110100111100010111101010101000011011101111111111010010110100010001010010010101111110100011100010111010100000100010101001001111101010010101000000010010101100011111111000000010100101010110100001101011001100101010110111110111110101111011001011000000011010100001001011111001000100101010100101001100100011011101001011110000011100010011001101,
0000100011011100010000100001011111000001101000010000011100011101000000111001101100011110110111001110100000101101001100110101000011011011001101110100010111111011110100100100000111111000111101001011111001000110101011110010100110101101001000000001100101010101111110101101010000100001110110110001010111101101100110011100010111111000010101111100101110011110000100011111110110010001101111010011101001000000010000111111111001001010101101111111100000010010010101011110011010011000010011010001101000100100111000000001011011100111111001110011001011100101000101011100110111100010000010110011110001000011001000111101100100100011000000110001010001001100000111111110100111001101000000011001000110110101101001010101011000000010110000110100010100001011001100111100101000011001101101110011111100110010110010111001110011011011111110110010111111100011110000010001000100011111101101000001100011100001001110111111101100001101110011110000101101001001100111110001100001000101111010000100100100100011101101111111111000000001110100101101100101000010,
0001100001000010110100101101110111100101111110111110000100110110110111001110110011110111001111010011110100001001111101100001001100111010000011100011100100110100101100110100101000110000000011101011111011101011000011000000110110011111100100101011100100101111101110111101001100010101001011001001010100000110110101011010001100010001001111111011001111010100101111101101100111010101110111011111000100001011111010110010001010111000001110110000011011001101101100011010010000000110100111111110001100010011101010000000111000110100101111101010011100111010110110110101110011001000111100101011100111100100101001111011010010011111000000111001011100011000110000111100110110111111100100001011101111111000000101100001011110110000001000000001101011001100110110111100000011100111110110110010100000011001110010101110111010011111111001111010101110110010111010011110010101010000110110100001010111010011101011111101100101100010110010110000110000111010111010100001100010011011010100110010110011110010110010001100011100010001001000001110010010000101,
1101010001011010000010110000010011000001001001011110011011000110111101110010100110110001011001110000001101010110110100101010011100000100010110100011110000001000010101110101110010110101000100011110001111100011011000000010010100101110101110000011011011111001010101101101010000110000001100010011111001001001111111001110100100111111000010111110100100110010001010001100010111111101101110101100010101010010001111110001000011111000111100011110100011010110010000011111110100000101110000101101011111110101101001000000001000010000000010001111000011111100101100111010101111111110110010111010100101011000110011010001111101110110111100101111111101001000110010010000111001100101110011101100100100000010001101000001000111011010111010101100101000111101001101100110111100011101111101000010100101010001111100111011010111111011001111010011011101001001000010011110100100110010001011000010011111111101001101001100110011101010001011010011101110100011110110111110101111100011110011100100010000001011110101101111111101100110000011010100110101000010,
0010010111110000000001011110010011100111110010100011101110101111111111000000101100000101011000110001000110101010111001010100100011111001001100100010001111011001011000001010001111011000000011010010011000010010010010100110001000111001000110000010111000011111101111110010101000101000110000101111001101010000101101110110011010111101010110010101110011101111010110000010011001010110110100101110010100000011001010001111111100000111110011000100111000011010010000110010101100111010101111011111010011000001000000011011000101001010101100111100101111001111110101100000100001011111101010100000101000010010001111111100100111100001111000000001010111111110111001001111111011111010111001110010101000011101010100100010011111100111010011001101101111011100001011111100100111001110000101100101010111000111111000011110000010111110010010001100010011011000111100001110101100110100000111100110001101001000001111111111101010101110110100011111100000101000001000100001010111100001101010101010100011101110110111111110110011110101000111110110010100001111,
1101011100011001001100010101000011101011001000101010010010111100110001011101000100110010010010101010110001000111000111010011000010111000110101010001111000010111000001100000111100101000000100101011101111100010111110000000101011101101101010111100011100010101101010000011100010110101001101110000111000110000101111000011010100101110101000100010110011001100000100000011001010101010010000011110111101001111001001100101010110100111010101010011010111111111110110100011100001001000111011111100001101001110001101110011000011000001001111100010010111100111110100110011101101011010000111001110000010111110111100010010010100001111101101000000101111001000101010100010001100011101110100010100000000100011111101100001001011001001110110101010000110111111101101111111011101010011111000101101001000101101101011011111010111010011000100010010101111011010111001010100100111000110110110110010100100100100110000011110101101000110110000001011010010101000010000100000111111010101010001110001011111110100101000110011100011011111001010101011000101000101,
1110010010101011000100110011010011001101110001001010101100110111000110100010101000111011110111001001111101011011101011111010011110100110000010000001100110101010001011111100010110101000111011011101010100101111110001111100000000111001010100000011111000010111010011100000000110101001000110111100100000000100000000110100000111011010000010111101001000100001001101101011000111101100110100100011001111010101001001010011110010100100110001010001001111111101010010101011001010101100010101011010110000111010000100011111111101011100000110011111000011110001111101111010001111110000010111111111001101011011010100111110011111110011010000100100111100100101111000111110100111010101101001010010110001011111101000101101100101010111001010001110011101001001101011010001101011101011101111100100010001011110110100011100001100001000001111100101100100100110001111001111111000100010000111000000011001001000111000111010101101100011000100001100011000011011000000010101110111001101110011001111100100100000001010000001111001100100010011001101010000011100,
0001000001011010000100100001101001001010111101110101000100111011101100110010110111010010000001111101111101011001110100011011110101000000000111001010110001001011101010110000001000011000010100010100110011001000010010111010001110100100001011000000011100011111101110011111110110111000101110001011111011000110001111001101110001001010101010110011101100110000010010001111001001000101010110100000100111100101001111111110011111111000010000100000101101001100110010011101001110111110010000011010001101001000000001011011100111111010110001100100011011111101000100101011111111011001110111111100010000100100001100000000111111101100111000010101000000010101001100001110001111011001011000100010111100011010110000110100000101010111010001110100010011111001110110001011011101001011101001111100110101001010001011100100001111011001101101011110101011000000111010111011001110111100101001110001001101001111001001001111001010100010000110010100111110110011010110110000011011000101110101011110101011001010001000000000010010101110110001000011100000100100,
1111111010111000001110100011011000101011110101010010111000111010000110111110100011100001000100101100100000001101001001011111010001000111111111010100001101001011000111110000001101011011001001010110101101101100001110001110110100011000111001010100011010110001000010110010001001000100101100110100110000100010110001110100011001111000110011000100101111100101001001000011100011110011010111101110000001001001000101000101100001010111101110001011110001100110101101101100000111001000011011101111111000001111111101010000101011111101111111000100011001000111101010001101010000001000111000111111111101100011001011000000110101110110001100000011001000010010001111010001000111101110000000110100011000100101101111100010001000101100010101110011110001000111001111000110011000011100101110101101000000011100011001111100110110110111110101000100101100101010000010000111001001001111110100010010000111111001000100000101110100001001110110000001000000111100001100100101100011011001000110101110101000001011110101001011100001011110101100011111101110111001,
1111011100001001110011011011110011010111111000001110011000011101001011001111001100011010000001111111111010110010110111011101011100111000000010000100110001010010110010110010101111001001000111101100011100011001111000110010010101010010010011101011110100100001110010000010100000000111101010011101011100110001111111100010011001000010110100100011100110110100000110100000000100010010000001110100000001011100010101011010000000000011101001010011111000011110111000000011001100101101101101110011000100001110000000100000101110110000101001111011101011010111111000011010110001001110111000001111010011110010000011011100000000001110001101010011011011010010000000110000100100010101010011000101000000010001001000001011001111001001010000110011111110110100011000110011000000110100010101001110000111111001011000101011000100010010000100000011011100000100111101111110000101010010001101100011100100111001001100101011101101000100000001000011100001011010001100101100011111011101110111001010000010111101110010100100011001011011101011100100100100001111,
0000100000100111000101101101000100000011101100110010001111010111000101010101001011111001110111001110100100111111010111101110100110101100000011100101010001001011101110001110001010101100010000101100111101001100000000110010111100101011001100101101100000000010001010001100100000111011110110010101101010101100101000111100011111010100101001001111010100100011010010010010101100011000000000011100111010111110000101111100000111100001101110001101111011011101111111001100000100011000000111011101000100010010110111001101110000101011010110001111100001000101110000010101001011110101000011010011101010111011000111010101010011101101111010110011110001011111010101010000101100001110001110000100100111111010010011000001000011110000001010010001111110101010010110001111111111111101001000111100001010101000010110101111111000111100111110111111100011110000000000100001011010101011001110111110111000110100000000011011001101011011010001110010100111110011111011110011010000000111111000001100011100010010101101001111100010101001000110110001000000001010,
0011111011011100000000101010100101010110000010101010101000001000110001011011010001010010101100001011011111000110000011110000001100110110000010001101011011110011000111100110000010111110111110011100000101000110001001100000001110100111011000001010110010011010010001010000100111101010110101001011011001100001000011001010110000100111001110011110001000110100101001101101101011101010110111000000000010101010111001100101010001001101101111110100011100100000000010010010101000101100111010111101010011010000001111101100100110111011010110000110001000010110010000100011001110101100110100001110001000010011111011000101001000101101111010010001101111110110101000111010010110111101111101011011001100011011111110110100000000000110010100100010010000111000101101000100101010101100011001000101100011000100010110011010111111011001110010111111000111000110000001111100001001001001010111010100001101001011000110101110011110011110101000111110100011011101010110001011011001011111101011011010010000000000000101101111111100011001000000011110000011111000,
0000000011001111111100100010010001011001000111100011100011011001101111000000101101000101010010111111010100010111110011100000111111010001010000000100001001001001001111011110011000110011000000011111101001010111110010011011111100100001110101011110101000000111110000011101001100100011010011110011000000111101000101001011001111100011001111101100110111001101101111001111110111000011110111011101010110011110000000100000110111100101101000111110001001010110000011001111000000011111111000111001110100100011010001101011001001010001111010111011111101010011101011001100000011011110101001111101110011000011111111001011111000110011110100001010100110110011101001111110010011111110000110000100110100100000101011100011010000110100111111100100001111011100110011111100111111011011001111111001111100100100010010111110011111111001010100101010101101001110111001010010110000010001111011111110000111011011101101110001101010110110110011111101100010011111001110101011000000011000111111000001111111110000000111111101100111111000101100111111001010111111,
0010100000100000101001111101001111000001101000111010000011101100010100110000110101011101000001011110100000111100111100011101110100000010001111110010001110100110001111100010111010110111000001000101100101011101110111110101000111110111111010100100010000011011001101001111000111100101110110101100001000010101101001010000001100001011001101100011000111001010001100010011100001010101000010010100010110100101010101001011101100010100001011111110100000001000000010111111000110111001101011111110011111011101000110011111000011011110110100110100101111010001000010110001001011110111000010011011110100100110111001011010100000101111111010100000101000001011001001101101100000010100001000111111101011111111110000100100010111110111111100111100010111000011101101010100001010100111110001011100100101001110111010101010011011101101010010101100111011110011001101101010111100000011000111000100001111100111101100101001111100010001111010101110100100000111111110001111101101010110010000001110010010100010001010111100101110101100000000110100000101001101,
0011000100111100111000101010101000011100000101101011010110101010111100110000010000111101010011101111010011000010010101001001110111010110000011101100001111101010101110000100001100010000100111011111000000010101101101011011000011001101110110100000011100011101111001100001100000110110110100100100101011000110101110011101010011110101111011011010110011001001001110001001101111100111000010000001001000100011101101001010100111101011110111011100110110111000111011001110010010111110001001100100000001001010110100000010001100110100000101110011011100011010000000100010001010100001110110011011011000101101110000001111101000101011001010001011111000010010111010101100110100001110101100111101011000110000000110110000000000001100010001000011100000010011001100001110010111010000001110000010010011000000110000110011111100000100000000011101000100101100111011110100010001000000010001011001101111110000000101010000101010111010101100010101000001010100000011011101101011001010111001000101100010011111000110001011010110101011001111001110001000000101,
0100010010111110111000100000100101100000110100010101110000001100011001101110000000111110110010110100101011111010000110000001000011010010001101101010111000110110010000010000000001010101010010111111011101000001000110010100100001010010001011110010010010110110101110011101101100001101111100100011011100000000011001111100000100100101001000011011000001100111001110000011101001010000010110100101111011101000010011101011110011001101000010001111000001011000101100001101011111011010101101100000010000110110101110000010000111100000010100100001101100011110101110010000011001001010000000010000010011011100111100110001011111011100001000111111111001011100101100000010100111011001001111000110010000100011000111100101001111100011000011101011110111011100000100110010011010101100111101010101011100100100010010011101001111010111101101110100011000101010010011101110000000000110111110111011111111110011000100011010100011100011110011101101001011101110110111111110001001001101011000001101101001011110000001000011001101001011111101001100000111000010,
0100111011111001100111111100101000111011001000110011100111110111111100001110101001010010101011000001101011010000101011011010010001011000001100010100101011000111100001111101101100101001101111101111100111010010010000011011111111110110101011011110111101001101001001000010011110011011101110111011101011101001110000111100000010111001010110100100001110000111111110111100010010010101000101111101111000100101100101111111110100100010111111101101011010011001101110000011000010110011110111001110100000000010101101011010101100111110111110001011010101100011010000010101100000101001100000000010000011110100010001100000010111010111001010010000100011111110010101111011101011110001100010101100111100100110000010001101101010111100110101011100100101010110101110111100000010101100110111000001011001001100001111100000100110101101101110111111100010101001110000111100000101011000111001010000100101011001110101010001011000111001110011111001111010111000111011001001111100000000111000011110001110100011000101010000010000010111111110101010011000010110,
0101011111111100101100111111111100100111101000110001101101011000111000100001101001001011000100110011000011001110111100001011001101010111000111001110011010111011001100000001101001010111110011101111001000010000000110110010100100101000110011110011011100011111111010001111000010110001000011100000100110101010110000110101000011011000011001001100001100100011111101101100101100010000101111000101111011111111101011111111000000011010000111010001101100000110101000011110101111000100111001010001111100110010110010101011101111101100010110000011010011000110001001111101010100111010111001011111001011100111110100100000000111011001000001011111001100010101010011100110001001010111000010001011101000101010111110100010000110110100111000111110101100000111010110011111010000011110010001111101100001011000010110101001111110100000111101001010101110110100000101000000001011111011111001011111101110100101111100011011111111001110111111100101101100100001101011000001101101011000010011100001000000011111001010100011110001010000111101000110011100001011,
1101100000001111101001111011111101000010001101010010000110100001001100000011100111101101010001000000100000010111010010100100110001001110001110010000111010110001111101000101001111100000000001101001110011011101110101010100000010010101100101100101001000001110010010011111101100000011000110010001000111010110101100110100011100111001000100010100001011001111110111001110111000011001100110001110011111000010101100100010000000111011110010101010101011110010110001110100101100010111111100001110101101000110001111110101010100100111111100101111110100110010110101000101100110011110000011110001100000100001101001000100011110001101000000100100011100011110000101001011100111001100100100010001011010101011001001110010010010100000000011100101010111010101101011101100010100010001000010010010111100101011000100011111100100000100110111111001101110110101001101111100010011100001111100000100111110111111000110010010110111110101110111101100000100011111001111011110010100100100110001111101000011010111110010110000110000101100000011011100101110010011,
0010110000000110001110011010000110111011000011110011111100101110000100000011110111111101110111110101100010110011111010110010100100101000001011011011011010011101001101111101110100110100001100011110010100101110010011001110010000000101101000101111001000110000010101011010101011011110010011000000110011001001111000101111011111100110111101101100011010111000000000001100011101000011110111011010011100001101101111101010100000001001110010000010010100001111010101000011111110110000101101110010011001011010110100100101001011010011000001001101001000010110010100111111000011001100110101100101001011001110101001001001111000111010101000111010101100000010000100001100101000111110000101110101001011000001110011011110000111001000100111111011100100100101001110001011111010101100001000010010011001011101101100101100110111000000101000000101011011000111110110000000101111100011110101101101010111111100010001010000001000111110101100001011011111110101111110011101100111000000001011111010010100110010110011100011111111011110111010011110111100101111,
0000000000101100000001101100011101010010101000011011101111001011100110001101100101010010101110100100001111000111001111110101100001010101000010011110110000000100000011000000100111000100000010001110100101010000010001101111011011100001101101011101010101011001111011100001110100010110001000001100100100110000001000010000110000000011010011101110000011101101110101100100000111100110101111000000101011010010010000100000101111001110010110110010000010111100000011001110000100011000111101010001111111100100001011010011010110011111111001001100001111010000010101001100100110111110010001111010110011111011110010011011100010001111110111011100100011110100101001001101001110111100111100100001001111000100101001000001011011100011010011110001000011100111000010001111001110100111101100010101000011110001111001001011101001001101101000111100111100000100101000011010110100011100111100001110000011000111111010110100110000010001100110111101111100101011001001001101001111011011000100101101110010010111110111100010001110110011101010110010001111100001,
1111101100010000101001000001001100100101101010110011001010110000111011100011101100101010010100001110010101000001001100011011011100101000001001000001111000110100111011010011001100111101000111101101011111001000101001111100000111110000010011111111110001000101111011110010011011010101000010011011001001010100000101011100011100000101101111010100011110111001111001110100001101000101001110011100010100101110010010010011011011100110111000100110000000001100111101010100011000110100110111011101110111111111110010101100110101010010101011101010110111101101001111001101010000100110110110110101111000001100101001110000101100111001000000110100000001011010000110011111010000100000110011101011110001001001000110011100111011100110110100010000100011011000010010011110010101011101111111011010101101001101010111101111011001001100010010010101010001001011110101010100110110101111001010010010101101010000101011010010001010110110111110101100100001000101111001010001111000000010110010111100110111001010111110001100011011000001101110001010110101011010,
1111110111101011101010110000011011100001111100101011001111100010001001100100101110110100001011110100110111101001001111111101011111100111001000011010010110111000110001000001111101001011000110000010100010110111111100100001101111010111001001001011101111000110110011001101011111010111101101100110000110111110110011011110110111110100010101000001101000010110101010010011000001010111010100100000000100110001110010001101101100011000001101101111101010111000010010000101010110101000001010100000110100011001000010011001011001000010110001010011100110011111110011101101010100101011010011100011111001000100000011011011110001000100000010001110110101011011110100000101011100100100111101000000001000010100110010000100101010110101001111010100111111001011110011000011110111111010101101100100000011000000101110100001011011001000011010000011101111010000010001101100001111010010000010101110010111010100111011000000110101001101000110101101011111000011011000000010101110111111101011110001110000110111101101111011001100100010110100001101111011110011
