0001110010001011001001111101100010000000101110010111000010110001000101011110010000011101011011011001101011000011111100101101100110100110100100010000111011010010101010010001100011101010001011111010011001111011101111010001010111011100010011101100101011010000
1100100000111100110100100010000001111111000001111010101101100001110001000011011111001011101010110001111100101000111100010001000111101000010000000110011100000011111100111100100011101110110001110011000010101000001000001011101010100101111000110000010101000000
