memory_initialization_radix = 2;
memory_initialization_vector = 
11100110,
00101111,
11010000,
00000110,
01001000,
01010111,
00001001,
01000100,
11101011,
00111011,
11001000,
00101001,
00111011,
01010011,
10110100,
00110101,
11101110,
11001100,
00100001,
10101000,
00101000,
01000101,
00011101,
10110011,
00011001,
00001001,
00001111,
01011110,
01011001,
11110001,
01100101,
00010010,
11011000,
11100101,
11101101,
00000000,
00000010,
11100101,
11100010,
11100011,
11011111,
11010100,
01011001,
10101000,
11001010,
11100011,
01100010,
10110010,
00100001,
00011111,
11110100,
11101111,
01100110,
01001110,
10101110,
00011100,
11000000,
11111111,
11000100,
11011011,
00010011,
11110000,
00000011,
10101011,
01011010,
11010011,
11000100,
11011111,
11100011,
11100011,
10101010,
01011100,
11100100,
11110110,
00101111,
00111000,
01010100,
01011101,
10111010,
00100110,
11101010,
00111100,
11011101,
00011010,
11111010,
10101010,
10110100,
01100110,
00101110,
11110100,
00111000,
11101110,
00001100,
01001010,
11101100,
11010111,
11111111,
11011000,
01011000,
11011101,
11011001,
10110000,
00110101,
10100111,
00011100,
11100000,
10111001,
10101001,
00100010,
11000010,
10100000,
11101010,
00011001,
11110110,
00000011,
10111011,
10100110,
00100010,
11000000,
10101100,
00001010,
01011010,
11101101,
10111100,
10101110,
01011010,
00100100,
11001101