memory_initialization_radix = 2;
memory_initialization_vector = 
10101110,
11011010,
10101110,
10110101,
01001101,
11010011,
00101101,
01011011,
00010101,
11000110,
11100010,
00101000,
00110111,
10101011,
10110101,
00111100,
11001010,
10111001,
00101111,
01000000,
00010110,
00110011,
10011110,
11010011,
11111001,
00001100,
11010111,
11101101,
10100010,
11101001,
10111111,
11111001